#ifndef KICKBACK_MODEL_H
#define KICKBACK_MODEL_H

const unsigned int kickback_model_len = 7560;
const unsigned char kickback_model[] = {
	0x20, 0x00, 0x00, 0x00, 0x54, 0x46, 0x4c, 0x33, 0x00, 0x00, 0x00, 0x00, 
	0x14, 0x00, 0x20, 0x00, 0x1c, 0x00, 0x18, 0x00, 0x14, 0x00, 0x10, 0x00, 
	0x0c, 0x00, 0x00, 0x00, 0x08, 0x00, 0x04, 0x00, 0x14, 0x00, 0x00, 0x00, 
	0x1c, 0x00, 0x00, 0x00, 0x8c, 0x00, 0x00, 0x00, 0xe4, 0x00, 0x00, 0x00, 
	0x20, 0x0c, 0x00, 0x00, 0x30, 0x0c, 0x00, 0x00, 0xa0, 0x1c, 0x00, 0x00, 
	0x03, 0x00, 0x00, 0x00, 0x01, 0x00, 0x00, 0x00, 0x04, 0x00, 0x00, 0x00, 
	0x42, 0xf1, 0xff, 0xff, 0x0c, 0x00, 0x00, 0x00, 0x1c, 0x00, 0x00, 0x00, 
	0x3c, 0x00, 0x00, 0x00, 0x0f, 0x00, 0x00, 0x00, 0x73, 0x65, 0x72, 0x76, 
	0x69, 0x6e, 0x67, 0x5f, 0x64, 0x65, 0x66, 0x61, 0x75, 0x6c, 0x74, 0x00, 
	0x01, 0x00, 0x00, 0x00, 0x04, 0x00, 0x00, 0x00, 0x90, 0xff, 0xff, 0xff, 
	0x1a, 0x00, 0x00, 0x00, 0x04, 0x00, 0x00, 0x00, 0x08, 0x00, 0x00, 0x00, 
	0x6f, 0x75, 0x74, 0x70, 0x75, 0x74, 0x5f, 0x30, 0x00, 0x00, 0x00, 0x00, 
	0x01, 0x00, 0x00, 0x00, 0x04, 0x00, 0x00, 0x00, 0xea, 0xf2, 0xff, 0xff, 
	0x04, 0x00, 0x00, 0x00, 0x0c, 0x00, 0x00, 0x00, 0x6b, 0x65, 0x72, 0x61, 
	0x73, 0x5f, 0x74, 0x65, 0x6e, 0x73, 0x6f, 0x72, 0x00, 0x00, 0x00, 0x00, 
	0x02, 0x00, 0x00, 0x00, 0x34, 0x00, 0x00, 0x00, 0x04, 0x00, 0x00, 0x00, 
	0xdc, 0xff, 0xff, 0xff, 0x1d, 0x00, 0x00, 0x00, 0x04, 0x00, 0x00, 0x00, 
	0x13, 0x00, 0x00, 0x00, 0x43, 0x4f, 0x4e, 0x56, 0x45, 0x52, 0x53, 0x49, 
	0x4f, 0x4e, 0x5f, 0x4d, 0x45, 0x54, 0x41, 0x44, 0x41, 0x54, 0x41, 0x00, 
	0x08, 0x00, 0x0c, 0x00, 0x08, 0x00, 0x04, 0x00, 0x08, 0x00, 0x00, 0x00, 
	0x1c, 0x00, 0x00, 0x00, 0x04, 0x00, 0x00, 0x00, 0x13, 0x00, 0x00, 0x00, 
	0x6d, 0x69, 0x6e, 0x5f, 0x72, 0x75, 0x6e, 0x74, 0x69, 0x6d, 0x65, 0x5f, 
	0x76, 0x65, 0x72, 0x73, 0x69, 0x6f, 0x6e, 0x00, 0x1e, 0x00, 0x00, 0x00, 
	0x38, 0x0b, 0x00, 0x00, 0x30, 0x0b, 0x00, 0x00, 0x1c, 0x0b, 0x00, 0x00, 
	0x08, 0x0b, 0x00, 0x00, 0xf4, 0x0a, 0x00, 0x00, 0xe0, 0x0a, 0x00, 0x00, 
	0xd8, 0x0a, 0x00, 0x00, 0x88, 0x0a, 0x00, 0x00, 0x38, 0x0a, 0x00, 0x00, 
	0x24, 0x0a, 0x00, 0x00, 0x08, 0x0a, 0x00, 0x00, 0xec, 0x09, 0x00, 0x00, 
	0x5c, 0x05, 0x00, 0x00, 0x0c, 0x05, 0x00, 0x00, 0xfc, 0x00, 0x00, 0x00, 
	0xf4, 0x00, 0x00, 0x00, 0xec, 0x00, 0x00, 0x00, 0xe4, 0x00, 0x00, 0x00, 
	0xdc, 0x00, 0x00, 0x00, 0xd4, 0x00, 0x00, 0x00, 0xcc, 0x00, 0x00, 0x00, 
	0xc4, 0x00, 0x00, 0x00, 0xbc, 0x00, 0x00, 0x00, 0xb4, 0x00, 0x00, 0x00, 
	0xac, 0x00, 0x00, 0x00, 0xa4, 0x00, 0x00, 0x00, 0x9c, 0x00, 0x00, 0x00, 
	0x94, 0x00, 0x00, 0x00, 0x74, 0x00, 0x00, 0x00, 0x04, 0x00, 0x00, 0x00, 
	0xde, 0xf3, 0xff, 0xff, 0x04, 0x00, 0x00, 0x00, 0x60, 0x00, 0x00, 0x00, 
	0x0c, 0x00, 0x00, 0x00, 0x08, 0x00, 0x0e, 0x00, 0x08, 0x00, 0x04, 0x00, 
	0x08, 0x00, 0x00, 0x00, 0x10, 0x00, 0x00, 0x00, 0x28, 0x00, 0x00, 0x00, 
	0x00, 0x00, 0x06, 0x00, 0x08, 0x00, 0x04, 0x00, 0x06, 0x00, 0x00, 0x00, 
	0x04, 0x00, 0x00, 0x00, 0x01, 0x00, 0x00, 0x00, 0xea, 0x03, 0x00, 0x00, 
	0x0c, 0x00, 0x18, 0x00, 0x14, 0x00, 0x10, 0x00, 0x0c, 0x00, 0x04, 0x00, 
	0x0c, 0x00, 0x00, 0x00, 0x04, 0xe2, 0xb8, 0x61, 0x4a, 0x00, 0x21, 0x5b, 
	0x02, 0x00, 0x00, 0x00, 0x02, 0x00, 0x00, 0x00, 0x04, 0x00, 0x00, 0x00, 
	0x06, 0x00, 0x00, 0x00, 0x32, 0x2e, 0x32, 0x31, 0x2e, 0x30, 0x00, 0x00, 
	0x4a, 0xf4, 0xff, 0xff, 0x04, 0x00, 0x00, 0x00, 0x10, 0x00, 0x00, 0x00, 
	0x32, 0x2e, 0x31, 0x37, 0x2e, 0x30, 0x00, 0x00, 0x00, 0x00, 0x00, 0x00, 
	0x00, 0x00, 0x00, 0x00, 0x78, 0xe5, 0xff, 0xff, 0x7c, 0xe5, 0xff, 0xff, 
	0x80, 0xe5, 0xff, 0xff, 0x84, 0xe5, 0xff, 0xff, 0x88, 0xe5, 0xff, 0xff, 
	0x8c, 0xe5, 0xff, 0xff, 0x90, 0xe5, 0xff, 0xff, 0x94, 0xe5, 0xff, 0xff, 
	0x98, 0xe5, 0xff, 0xff, 0x9c, 0xe5, 0xff, 0xff, 0xa0, 0xe5, 0xff, 0xff, 
	0xa4, 0xe5, 0xff, 0xff, 0xa8, 0xe5, 0xff, 0xff, 0x9a, 0xf4, 0xff, 0xff, 
	0x04, 0x00, 0x00, 0x00, 0x00, 0x04, 0x00, 0x00, 0xec, 0xe4, 0x66, 0x54, 
	0xe2, 0x0f, 0x59, 0xda, 0xdd, 0x37, 0x23, 0x0c, 0x3a, 0x04, 0x35, 0x1e, 
	0xd2, 0x16, 0x24, 0x60, 0xfd, 0x11, 0xe7, 0xf7, 0xd4, 0x16, 0x15, 0x65, 
	0x54, 0xc8, 0xbb, 0x11, 0xe2, 0xae, 0x3a, 0x67, 0x40, 0xa4, 0x33, 0x42, 
	0x3b, 0x26, 0x09, 0x13, 0x10, 0x0d, 0xbc, 0x40, 0x47, 0xe7, 0xfa, 0xc0, 
	0x04, 0x1f, 0xf6, 0x3d, 0xf9, 0x7f, 0x2b, 0x1c, 0x71, 0x6f, 0xc5, 0x6a, 
	0x13, 0xef, 0x7f, 0xf5, 0xba, 0x68, 0xa0, 0xc8, 0x28, 0x9e, 0x12, 0xe3, 
	0x0b, 0x78, 0xd6, 0x16, 0x41, 0x75, 0xf4, 0x51, 0xe0, 0x0d, 0x03, 0x03, 
	0x43, 0xba, 0xc4, 0xb6, 0x15, 0xf4, 0xea, 0x85, 0x17, 0x44, 0x54, 0x16, 
	0x1e, 0xbb, 0x12, 0x9f, 0x3d, 0x40, 0x10, 0xf2, 0x6e, 0x0f, 0xd1, 0x22, 
	0x2b, 0xdd, 0x36, 0xbf, 0xaa, 0x23, 0xd4, 0xe3, 0x01, 0xde, 0x20, 0x73, 
	0xc6, 0xc3, 0x21, 0x2b, 0xaf, 0xe9, 0xae, 0x21, 0xb5, 0x13, 0xd5, 0x3c, 
	0x02, 0xfd, 0xa1, 0xf9, 0xc6, 0x2c, 0x5a, 0x2a, 0xa7, 0xd1, 0x55, 0x78, 
	0xfe, 0x4c, 0xd0, 0x0b, 0xfc, 0x21, 0xaa, 0x5e, 0x17, 0xc2, 0x2f, 0xae, 
	0xb3, 0x2f, 0x57, 0xb7, 0x7f, 0x60, 0xa5, 0x73, 0x64, 0xf0, 0xac, 0x61, 
	0xeb, 0x2f, 0x14, 0x27, 0x68, 0x14, 0x1b, 0x1b, 0xfc, 0xab, 0x25, 0xf3, 
	0xcd, 0x2c, 0xc9, 0xd7, 0xad, 0x05, 0x43, 0xb2, 0xb8, 0x29, 0x9e, 0xc1, 
	0x34, 0x1d, 0xa3, 0x30, 0x35, 0x2a, 0x4a, 0xd0, 0x8d, 0xe4, 0x46, 0x14, 
	0x6c, 0x19, 0xbe, 0xd0, 0x5b, 0xf4, 0xc1, 0x58, 0x5e, 0xc3, 0xc0, 0x9d, 
	0x6d, 0x24, 0x33, 0xc2, 0xd7, 0x2f, 0xd9, 0x37, 0x38, 0x24, 0xa2, 0xad, 
	0xfa, 0x81, 0x52, 0x5d, 0x5a, 0xad, 0xbf, 0x07, 0x23, 0x24, 0x3f, 0x1c, 
	0x01, 0x6b, 0x21, 0x2f, 0x1f, 0x2b, 0xf3, 0x1e, 0x2a, 0xd2, 0xd4, 0x99, 
	0x9e, 0x11, 0xcc, 0xdd, 0x28, 0xc8, 0xef, 0xdf, 0xf2, 0x11, 0xb3, 0x7f, 
	0x08, 0xf3, 0xeb, 0xb8, 0x27, 0xa3, 0xeb, 0x06, 0xc1, 0xc0, 0xc7, 0xf6, 
	0x45, 0xbf, 0xe4, 0xbe, 0xe3, 0x0e, 0xb6, 0x58, 0x4e, 0x3e, 0xca, 0xfe, 
	0x45, 0x20, 0xcc, 0x13, 0x06, 0xeb, 0xe9, 0xde, 0x24, 0x3b, 0xd0, 0xc8, 
	0xea, 0x9e, 0x4f, 0xfe, 0x9b, 0xb7, 0xa1, 0xdf, 0x37, 0x11, 0x1a, 0xdb, 
	0x08, 0x09, 0xbf, 0xd3, 0x32, 0xe1, 0x20, 0x2d, 0xc3, 0xcf, 0xb9, 0x99, 
	0x90, 0x34, 0x13, 0xec, 0xf2, 0x01, 0x4b, 0x39, 0x38, 0x62, 0x2c, 0xb8, 
	0xd5, 0xd5, 0x8d, 0xcc, 0x81, 0x41, 0x15, 0x17, 0x28, 0x11, 0xce, 0x0f, 
	0x69, 0x6b, 0xa1, 0x15, 0x28, 0xe8, 0xc9, 0x10, 0x68, 0x0f, 0x0d, 0xa4, 
	0xb0, 0xfd, 0x4a, 0xb7, 0xe0, 0xfe, 0xf2, 0x9f, 0xef, 0x05, 0x63, 0x06, 
	0x25, 0x06, 0x1b, 0xf9, 0xe1, 0xbc, 0xcd, 0x29, 0x0a, 0x3a, 0x3c, 0x1d, 
	0xe5, 0x4f, 0xd5, 0xc7, 0xd0, 0x1c, 0xde, 0x33, 0x35, 0xc6, 0x03, 0xa5, 
	0xfb, 0x52, 0x55, 0x01, 0x0b, 0x5d, 0xe4, 0x2d, 0xec, 0xcc, 0x34, 0x42, 
	0xe7, 0xbb, 0xb5, 0xcc, 0x06, 0x35, 0x00, 0xa5, 0xd1, 0x21, 0x3b, 0xb7, 
	0x32, 0xfb, 0xd5, 0x40, 0xfe, 0xf4, 0xfc, 0x4b, 0xfc, 0xf5, 0xf1, 0xad, 
	0x3c, 0x7f, 0x4c, 0xf6, 0xb5, 0x31, 0xf9, 0xdb, 0xd0, 0xea, 0x0c, 0x01, 
	0x6b, 0xb7, 0xab, 0x70, 0x43, 0xf4, 0x04, 0x87, 0x40, 0x5b, 0xeb, 0xcc, 
	0xe4, 0xc9, 0xef, 0x1f, 0x02, 0x5f, 0xd3, 0xbd, 0x7f, 0xc3, 0x5c, 0xff, 
	0x3e, 0x2d, 0xc8, 0xdc, 0x3b, 0x2b, 0x9d, 0x00, 0x0d, 0x58, 0x0e, 0x64, 
	0xe6, 0xac, 0x23, 0x3b, 0x50, 0xf6, 0x0f, 0xc2, 0x1a, 0xc6, 0xdb, 0x2f, 
	0xd2, 0xbf, 0x71, 0xe6, 0xd5, 0x84, 0x46, 0x1b, 0x71, 0xc3, 0x05, 0xe7, 
	0xd8, 0x78, 0xf9, 0xdd, 0xfe, 0x2b, 0x21, 0xe9, 0x45, 0x65, 0x91, 0xc7, 
	0x81, 0x15, 0x3e, 0xe0, 0xc3, 0xd9, 0x55, 0xc5, 0x29, 0xd3, 0xf0, 0x2d, 
	0x97, 0xab, 0x96, 0xbe, 0x31, 0xf6, 0x41, 0x49, 0x33, 0xd9, 0x62, 0x05, 
	0xf2, 0x39, 0x95, 0x3f, 0x12, 0x32, 0xb7, 0xc2, 0x5e, 0x54, 0xd3, 0xa7, 
	0xc6, 0x05, 0x52, 0xc3, 0x66, 0x03, 0x3b, 0xd8, 0x92, 0xe8, 0x66, 0xd9, 
	0x41, 0xd8, 0x35, 0x55, 0x09, 0x35, 0xbd, 0x33, 0x05, 0xce, 0x44, 0xb4, 
	0xb5, 0x7f, 0x24, 0x0f, 0x1a, 0xd1, 0xa6, 0x15, 0x1d, 0x13, 0xda, 0x23, 
	0x5e, 0xb7, 0xea, 0x16, 0x01, 0xee, 0xb9, 0xf9, 0x34, 0xbe, 0xc0, 0xc3, 
	0x3a, 0xc9, 0x19, 0x3e, 0xe1, 0x5d, 0x11, 0xe5, 0x55, 0xe2, 0xd3, 0x61, 
	0x19, 0x37, 0xef, 0xbf, 0x07, 0x00, 0xee, 0xd1, 0x0b, 0xb0, 0x4c, 0x44, 
	0xc0, 0xba, 0xbf, 0x20, 0xf6, 0xd8, 0xbf, 0xab, 0xcb, 0xef, 0xb9, 0xdb, 
	0x37, 0xf8, 0xf0, 0x81, 0x9d, 0x07, 0x44, 0xf4, 0xc0, 0x3e, 0x52, 0x11, 
	0xa0, 0x57, 0x50, 0x1f, 0x06, 0x10, 0x3d, 0x9c, 0x49, 0xfd, 0xd4, 0xf4, 
	0x2f, 0x3e, 0x1c, 0x9d, 0x1a, 0x1d, 0x05, 0x30, 0x06, 0x65, 0x57, 0x23, 
	0xbc, 0xe2, 0x34, 0x9b, 0xbd, 0x1e, 0x27, 0x1d, 0xe1, 0x9e, 0xb8, 0xbb, 
	0xaf, 0x2d, 0x2c, 0x17, 0x93, 0x49, 0x1a, 0xbc, 0xf3, 0x0a, 0x0d, 0x67, 
	0xbe, 0x25, 0x7e, 0x07, 0xef, 0xdf, 0xdf, 0x37, 0x0e, 0xb1, 0x51, 0x30, 
	0xea, 0x37, 0xff, 0x23, 0x1e, 0xa9, 0xee, 0xdb, 0xb7, 0x06, 0xd4, 0xc9, 
	0xc2, 0xe5, 0xe6, 0xc3, 0x87, 0xb8, 0x55, 0xde, 0x45, 0x9e, 0x3b, 0x90, 
	0x97, 0x0a, 0x14, 0xce, 0xb5, 0x8b, 0x0e, 0xd3, 0x4e, 0xc2, 0x11, 0x30, 
	0xff, 0xb0, 0x90, 0xe1, 0xe4, 0x81, 0x99, 0x3e, 0xff, 0xf8, 0xac, 0x5a, 
	0x15, 0x8b, 0x00, 0xa0, 0x03, 0xa6, 0xa6, 0xd7, 0xed, 0x2c, 0x47, 0x7f, 
	0xcc, 0xfb, 0x1c, 0x4d, 0xf6, 0x31, 0x67, 0xc8, 0x13, 0x1c, 0x48, 0x54, 
	0xf1, 0xbc, 0xb9, 0x0c, 0x1e, 0xe4, 0x63, 0x5e, 0x42, 0xd9, 0x47, 0x2b, 
	0xeb, 0xfc, 0x22, 0x4b, 0xd4, 0xb5, 0x16, 0x05, 0xf3, 0xd5, 0xf0, 0x18, 
	0x5f, 0x20, 0x4f, 0x43, 0xf4, 0xc6, 0x2f, 0x1d, 0xf4, 0x9a, 0x2f, 0xea, 
	0xf4, 0xec, 0xc4, 0x3d, 0x2c, 0xd1, 0xe3, 0x31, 0xf0, 0x66, 0x3b, 0xc3, 
	0xfd, 0xb1, 0x6e, 0x5f, 0x58, 0x6c, 0xc1, 0xa9, 0xf2, 0x2e, 0x20, 0xbf, 
	0xc8, 0x48, 0x5a, 0xbb, 0xb0, 0xdc, 0xfe, 0xce, 0x50, 0x3f, 0xa1, 0x31, 
	0xa6, 0xc1, 0xb1, 0x69, 0x81, 0xcd, 0x58, 0x92, 0xc9, 0x06, 0x07, 0x31, 
	0xc4, 0x2e, 0x9f, 0x46, 0x89, 0x98, 0xcb, 0x0a, 0xb9, 0xb4, 0x43, 0x2f, 
	0x14, 0xc0, 0x1c, 0xd5, 0xd1, 0x0c, 0xd1, 0x63, 0xf1, 0x1b, 0xca, 0x17, 
	0x9d, 0x55, 0xbe, 0xb1, 0xa2, 0xf3, 0xbe, 0x0e, 0x13, 0x9d, 0xb8, 0x54, 
	0xef, 0xc1, 0xd1, 0x40, 0x2d, 0xa2, 0x60, 0xe2, 0x67, 0x9b, 0xfc, 0xda, 
	0xf6, 0xeb, 0x1d, 0x1f, 0x1b, 0x37, 0x20, 0x36, 0xd8, 0x3e, 0xf1, 0x59, 
	0xad, 0x9c, 0xdb, 0x3f, 0x46, 0xec, 0x3a, 0xf0, 0xe5, 0x1c, 0x42, 0x17, 
	0xcf, 0x9c, 0x0d, 0xa8, 0xb2, 0xc7, 0xc6, 0x0c, 0x55, 0x7f, 0x40, 0xf0, 
	0xde, 0xb4, 0xef, 0x50, 0xb8, 0xbf, 0x0e, 0x6b, 0x11, 0xf0, 0xe6, 0x26, 
	0xee, 0x43, 0x51, 0x06, 0xcf, 0x33, 0xa8, 0x2e, 0x1f, 0x28, 0xf6, 0x9e, 
	0xe4, 0x43, 0xb8, 0xa9, 0xca, 0x28, 0x43, 0x11, 0x18, 0xde, 0xbf, 0xe2, 
	0x37, 0xdc, 0xd2, 0x3f, 0x5a, 0x53, 0xd3, 0x2d, 0x0a, 0x0b, 0x4d, 0xeb, 
	0x60, 0x20, 0xe9, 0x5e, 0x13, 0xbe, 0x7f, 0x5f, 0xd7, 0x25, 0xe3, 0xeb, 
	0x37, 0x7c, 0xb8, 0xf9, 0x21, 0xd9, 0xe4, 0xf2, 0xc4, 0x23, 0xeb, 0xda, 
	0xa6, 0xf8, 0xff, 0xff, 0x04, 0x00, 0x00, 0x00, 0x40, 0x00, 0x00, 0x00, 
	0xcd, 0x12, 0xd0, 0x3e, 0xd1, 0x00, 0x05, 0xbf, 0x79, 0x29, 0xe8, 0xbe, 
	0x4a, 0x57, 0x7f, 0xbd, 0x51, 0x64, 0x0d, 0xbd, 0xb1, 0x70, 0x4a, 0xbe, 
	0x2e, 0x5a, 0x8a, 0xbd, 0x2c, 0x09, 0xe4, 0x3e, 0x0f, 0x87, 0x97, 0xbe, 
	0x29, 0xd7, 0xc4, 0xbe, 0xd6, 0xec, 0xab, 0xbe, 0xee, 0x5b, 0x35, 0xbd, 
	0xb7, 0xeb, 0x6c, 0x3e, 0x3b, 0x91, 0xcb, 0xbe, 0xa1, 0x55, 0xe9, 0xbe, 
	0x69, 0x27, 0x8f, 0xbe, 0xf2, 0xf8, 0xff, 0xff, 0x04, 0x00, 0x00, 0x00, 
	0x80, 0x04, 0x00, 0x00, 0x94, 0xca, 0x42, 0xbe, 0x2a, 0x0f, 0xdb, 0x3d, 
	0xcd, 0x7c, 0x97, 0xbe, 0x8d, 0x0a, 0x89, 0xbe, 0x19, 0x0e, 0x73, 0x3e, 
	0xce, 0x01, 0xd7, 0xbd, 0xb8, 0x32, 0x39, 0xbe, 0x50, 0x50, 0xb7, 0x3d, 
	0xee, 0x26, 0xba, 0xbe, 0x54, 0x43, 0x45, 0xbe, 0xd6, 0x2c, 0xfd, 0xbd, 
	0xfe, 0x67, 0x26, 0x3d, 0x3f, 0x20, 0x31, 0xbe, 0xc2, 0xc3, 0x1a, 0xbe, 
	0xa5, 0x5e, 0x81, 0xbe, 0xa3, 0xec, 0x86, 0x3e, 0xe2, 0xde, 0xf3, 0x3d, 
	0xcf, 0x41, 0xea, 0xbc, 0x0a, 0xcf, 0xd8, 0xbd, 0xde, 0x4c, 0xb0, 0xbc, 
	0x41, 0x87, 0xe2, 0x3d, 0x5c, 0x12, 0x50, 0x3c, 0x43, 0x7e, 0xc7, 0xbc, 
	0x3d, 0x54, 0x71, 0xbe, 0x24, 0x1c, 0xd7, 0xbd, 0xd4, 0x5e, 0x8d, 0x3d, 
	0x39, 0x06, 0xcd, 0xbb, 0xe1, 0x76, 0xab, 0xbd, 0x03, 0x60, 0x1a, 0xbe, 
	0x69, 0x08, 0x42, 0x3e, 0xe3, 0x3b, 0x6e, 0xbd, 0x95, 0xd7, 0xba, 0x3e, 
	0xd9, 0x72, 0xe6, 0x3d, 0xe2, 0x6d, 0x0f, 0x3e, 0x84, 0xa3, 0x44, 0x3e, 
	0x1f, 0x23, 0x42, 0x3e, 0x65, 0x0c, 0xba, 0x3c, 0x55, 0xd7, 0xb7, 0xbd, 
	0xeb, 0x58, 0x1a, 0x3e, 0x67, 0x21, 0x16, 0xbe, 0xb0, 0x0f, 0xbe, 0xbe, 
	0x6e, 0xd1, 0x4f, 0x3c, 0xe8, 0xde, 0x0d, 0x3e, 0xcd, 0x17, 0x8f, 0x3c, 
	0x8b, 0x70, 0x61, 0xbe, 0x11, 0xc9, 0x83, 0x3c, 0x0e, 0x96, 0x8c, 0x3e, 
	0x2e, 0x3a, 0x8c, 0x3d, 0xf9, 0x97, 0x3f, 0xbe, 0x33, 0xf7, 0x81, 0xbe, 
	0x30, 0x73, 0x1d, 0xbd, 0xbd, 0xba, 0x88, 0x3e, 0x18, 0x99, 0x4a, 0xbe, 
	0xf1, 0x7b, 0x1f, 0xbe, 0xc4, 0xf1, 0xf6, 0xbd, 0x3f, 0x87, 0xd5, 0x3d, 
	0xf4, 0x47, 0x52, 0x3e, 0x56, 0xd5, 0x4d, 0xbe, 0xaa, 0xaa, 0xae, 0x3c, 
	0x7f, 0xd8, 0xcc, 0xbe, 0xc4, 0xf1, 0x7c, 0xbe, 0x80, 0xd7, 0xb6, 0xbe, 
	0xe2, 0xd4, 0x4c, 0x3e, 0x4a, 0x41, 0xb6, 0x3d, 0xc5, 0x3f, 0xd7, 0xbd, 
	0x61, 0x62, 0xb8, 0xbd, 0xaf, 0x43, 0x02, 0x3e, 0x0f, 0x69, 0x69, 0xbe, 
	0xc4, 0xf5, 0x66, 0xbc, 0xf8, 0x99, 0xf0, 0xbd, 0x70, 0x72, 0xc1, 0x3d, 
	0xdc, 0xaa, 0xfe, 0x3d, 0x52, 0x4d, 0x0f, 0xbe, 0x31, 0x8c, 0xeb, 0x3e, 
	0x00, 0xce, 0x7c, 0xbc, 0xb6, 0x80, 0x19, 0xbe, 0x3e, 0x05, 0x4e, 0xbe, 
	0x65, 0xcd, 0x7a, 0x3e, 0x17, 0xb4, 0x32, 0x3d, 0xf4, 0x28, 0x6c, 0xbd, 
	0x03, 0x35, 0xb0, 0x3d, 0x23, 0xd3, 0xb9, 0xbd, 0x32, 0xc0, 0x6c, 0xbe, 
	0x8b, 0x8c, 0x74, 0xbe, 0x71, 0x84, 0x6b, 0x3e, 0xa6, 0x4a, 0x1c, 0xbe, 
	0xff, 0xf7, 0x86, 0xbd, 0xdb, 0xd2, 0x62, 0x3d, 0xbb, 0xe4, 0xce, 0xbd, 
	0x84, 0xce, 0x15, 0xbe, 0x06, 0xc7, 0x1b, 0xbd, 0x80, 0xe2, 0x99, 0x3d, 
	0x49, 0x90, 0xcd, 0x3d, 0x86, 0x20, 0x87, 0xbe, 0x38, 0xaa, 0x12, 0xbc, 
	0x6e, 0xf2, 0xf3, 0xbd, 0x96, 0x58, 0x1c, 0x3e, 0x17, 0x7b, 0x28, 0xbe, 
	0x20, 0xe0, 0xde, 0xbe, 0x32, 0x99, 0x2f, 0xbe, 0x95, 0xb4, 0x9e, 0xbe, 
	0x0c, 0x76, 0x80, 0x3e, 0x40, 0x78, 0xfb, 0x3d, 0x35, 0xf5, 0x02, 0x3d, 
	0x76, 0x01, 0xfa, 0x3b, 0x3c, 0x89, 0x31, 0xbe, 0x1e, 0x92, 0x00, 0x3e, 
	0x9d, 0x3d, 0x2a, 0xbe, 0xdd, 0x9f, 0xfc, 0xbd, 0xfb, 0x0d, 0xcb, 0xbd, 
	0x26, 0x39, 0x9f, 0x3e, 0x2d, 0x88, 0x1a, 0x3e, 0xcc, 0xa0, 0xb2, 0xbe, 
	0xe5, 0x6c, 0x56, 0xbd, 0x6f, 0x9c, 0xc7, 0x3d, 0xfe, 0x61, 0x80, 0x3d, 
	0x70, 0xba, 0x3f, 0xbd, 0x9d, 0x1c, 0x4c, 0xbe, 0x8d, 0x2b, 0xc4, 0x3d, 
	0xa7, 0xcf, 0x2a, 0x3e, 0xcc, 0x19, 0xa2, 0x3d, 0x13, 0xf8, 0x83, 0x3e, 
	0x2d, 0x3c, 0xe9, 0xbd, 0x90, 0x23, 0x82, 0xbe, 0xac, 0xb0, 0x21, 0xbd, 
	0xb8, 0xff, 0x63, 0xbd, 0x81, 0x83, 0x81, 0x3d, 0x9a, 0xfd, 0x6e, 0x3e, 
	0xd2, 0x76, 0xe0, 0x3d, 0xdb, 0xdc, 0x25, 0xbe, 0x84, 0xdb, 0xa8, 0xbd, 
	0x54, 0x10, 0x43, 0xbe, 0xc5, 0x3e, 0x4b, 0x3e, 0x83, 0x21, 0x9b, 0x3e, 
	0x71, 0x83, 0xd4, 0x3d, 0xad, 0x12, 0xd4, 0x3c, 0x13, 0x47, 0x42, 0xbe, 
	0xbb, 0x74, 0x89, 0x3e, 0x1c, 0x5f, 0x90, 0xbd, 0xbb, 0x28, 0xb4, 0xbd, 
	0xbd, 0xae, 0x64, 0x3e, 0xb9, 0x4a, 0x17, 0xbe, 0x82, 0xda, 0x1e, 0x3e, 
	0x07, 0x30, 0xa2, 0xbe, 0xa3, 0xf8, 0xe6, 0xbb, 0x11, 0x2b, 0x08, 0xbe, 
	0x01, 0x09, 0xc0, 0x3d, 0xfb, 0xb2, 0x4f, 0xbc, 0xda, 0x2f, 0xc5, 0x3d, 
	0xe6, 0x1b, 0x16, 0x3e, 0xb5, 0x33, 0x66, 0xbd, 0xd1, 0xe6, 0x44, 0x3e, 
	0xc0, 0xcb, 0xe8, 0x3c, 0x3d, 0x0d, 0x5c, 0x3e, 0xc0, 0x3e, 0xfe, 0xbd, 
	0xe3, 0x18, 0x1a, 0x3c, 0x0d, 0x3e, 0xbd, 0x3e, 0x91, 0x45, 0x7a, 0xbe, 
	0xb1, 0x6c, 0x1c, 0xbe, 0x22, 0xbf, 0x6c, 0x3d, 0x84, 0x2f, 0x9c, 0xbe, 
	0xf4, 0xd3, 0x36, 0x3e, 0x99, 0x89, 0x75, 0x3e, 0x04, 0x50, 0x98, 0xbe, 
	0xe1, 0x5b, 0x84, 0x3d, 0x98, 0x3d, 0x17, 0x3e, 0xae, 0x0a, 0x84, 0xbd, 
	0x0e, 0x8a, 0x39, 0x3d, 0x5b, 0x61, 0x3e, 0xbe, 0xe2, 0xa3, 0x7a, 0x3e, 
	0x48, 0x16, 0x97, 0x3e, 0x8c, 0x07, 0x1c, 0xbe, 0x4a, 0x14, 0x9e, 0x3e, 
	0xa7, 0x2b, 0x00, 0xbd, 0x98, 0x0a, 0xcf, 0x3e, 0x20, 0xd1, 0x32, 0x3d, 
	0x46, 0x03, 0xaf, 0x3d, 0xba, 0xab, 0x52, 0x3d, 0xef, 0x0f, 0x7d, 0x3e, 
	0xf0, 0xfc, 0x80, 0xbc, 0x87, 0x33, 0x80, 0x3e, 0xc1, 0x8d, 0x57, 0xbe, 
	0x3c, 0x94, 0xaf, 0xbe, 0x8e, 0x51, 0x2d, 0x3e, 0x9e, 0x56, 0xa5, 0xbe, 
	0x77, 0x63, 0xd4, 0x3d, 0x46, 0x96, 0xec, 0x3d, 0x9d, 0x07, 0xb3, 0x3d, 
	0xcc, 0xde, 0x10, 0xbe, 0xa1, 0x8e, 0x3a, 0xbc, 0xe9, 0x16, 0x4a, 0xbe, 
	0x8e, 0x48, 0x34, 0xbb, 0x4f, 0x10, 0xfd, 0x3d, 0xe0, 0xa8, 0x57, 0xbe, 
	0xa5, 0xeb, 0xb8, 0x3d, 0x8d, 0xe3, 0x63, 0x3d, 0x81, 0x45, 0x17, 0xbe, 
	0xd1, 0x58, 0x35, 0xbb, 0x86, 0xba, 0x82, 0x3d, 0x35, 0x87, 0x5f, 0x3e, 
	0x6b, 0xe2, 0xd0, 0x3e, 0xd7, 0x76, 0x9f, 0xbd, 0xa9, 0x72, 0x1b, 0xbe, 
	0x62, 0x9a, 0x51, 0x3d, 0x74, 0x94, 0xb2, 0xbe, 0x8c, 0x0e, 0x95, 0xbc, 
	0xc3, 0x0d, 0x5c, 0x3e, 0xf7, 0x9a, 0x7b, 0x3e, 0x25, 0x0d, 0x63, 0xbe, 
	0x3e, 0x97, 0xe0, 0x3d, 0x1c, 0xf4, 0x9c, 0xbe, 0x5d, 0x84, 0x98, 0xbe, 
	0x7d, 0x04, 0xba, 0x3e, 0x0e, 0xef, 0x95, 0x3e, 0x2d, 0x2b, 0x7e, 0xbd, 
	0xa2, 0x7a, 0xc0, 0xbb, 0xf2, 0x2c, 0x01, 0x3d, 0x2d, 0x11, 0x19, 0xbe, 
	0xe5, 0x66, 0xf3, 0xbd, 0x95, 0xae, 0x7a, 0x3c, 0x3e, 0x71, 0x0a, 0xbd, 
	0xb8, 0xde, 0x99, 0x3e, 0x58, 0xd6, 0x28, 0x3e, 0xb5, 0xac, 0x28, 0x3e, 
	0x54, 0x05, 0x67, 0xbd, 0x9a, 0x8f, 0x55, 0x3e, 0x33, 0xa8, 0x9c, 0x3c, 
	0x48, 0x88, 0xe2, 0x3d, 0xb5, 0x23, 0x06, 0xbc, 0xae, 0xc5, 0xae, 0x3d, 
	0xfe, 0xc2, 0xc1, 0xbe, 0xdf, 0xb5, 0x6b, 0xbd, 0x3e, 0x7e, 0x68, 0x3e, 
	0x9c, 0xd8, 0xbd, 0xbb, 0x6c, 0xf4, 0x03, 0x3e, 0xd0, 0x8c, 0x3f, 0xbe, 
	0x69, 0x57, 0x22, 0xbe, 0xbc, 0xca, 0x6d, 0x3e, 0xed, 0x36, 0x5e, 0xbe, 
	0x33, 0xd9, 0xdd, 0xbc, 0x7b, 0x3e, 0xcd, 0xbd, 0xa6, 0xe5, 0x4c, 0x3e, 
	0x81, 0x30, 0x2b, 0xbe, 0x25, 0x88, 0x69, 0xbe, 0xfd, 0xd8, 0xf6, 0xbb, 
	0xd9, 0xaa, 0x3b, 0x3c, 0x06, 0xaa, 0xd5, 0x3e, 0x98, 0xfd, 0xc6, 0x3d, 
	0x59, 0x19, 0xb5, 0x3d, 0x98, 0x1d, 0xfe, 0x3d, 0x27, 0xfb, 0xbc, 0xbe, 
	0x63, 0x81, 0x08, 0x3e, 0xfd, 0x9b, 0xef, 0xbd, 0x25, 0x6c, 0x6b, 0x3d, 
	0x66, 0x78, 0xef, 0xbd, 0x6b, 0xe3, 0xc3, 0x3e, 0x37, 0x68, 0x59, 0xbd, 
	0xbb, 0xdd, 0x09, 0x3e, 0x21, 0xd8, 0x44, 0xbe, 0x59, 0x5f, 0xa0, 0xbd, 
	0x7b, 0x09, 0x03, 0xbd, 0xa9, 0xc4, 0x74, 0x3e, 0xbf, 0xc6, 0x10, 0xbe, 
	0x06, 0xe5, 0x67, 0x3d, 0xbc, 0x6d, 0x7f, 0x3d, 0x1a, 0x70, 0x4a, 0xbe, 
	0x88, 0xd2, 0x6d, 0x3e, 0x38, 0x1e, 0x34, 0xbe, 0x9c, 0x70, 0x37, 0x3d, 
	0x83, 0x65, 0xe1, 0xbd, 0x3c, 0x1f, 0xa7, 0xbc, 0x0a, 0xde, 0x6d, 0xbe, 
	0x89, 0x84, 0x7f, 0xbd, 0x22, 0xf6, 0xf8, 0x3c, 0xc5, 0xbd, 0x71, 0xbe, 
	0xdb, 0x1f, 0x85, 0x3d, 0xbd, 0x18, 0x3e, 0x3e, 0xb4, 0x99, 0x9a, 0xbd, 
	0xfa, 0xba, 0x6d, 0x3e, 0x06, 0x48, 0x78, 0x3e, 0x83, 0x48, 0x0f, 0x3e, 
	0x98, 0x9b, 0x26, 0xbc, 0x99, 0xc9, 0x91, 0x3c, 0xf1, 0x7e, 0x8f, 0x3e, 
	0x7b, 0xfb, 0x83, 0x3e, 0x93, 0xdc, 0x0f, 0xbd, 0xa6, 0xc3, 0x4c, 0x3e, 
	0x0e, 0x3f, 0xd7, 0xbd, 0x7e, 0xfd, 0xff, 0xff, 0x04, 0x00, 0x00, 0x00, 
	0x0c, 0x00, 0x00, 0x00, 0xff, 0xff, 0xff, 0xff, 0x08, 0x00, 0x00, 0x00, 
	0x10, 0x00, 0x00, 0x00, 0x96, 0xfd, 0xff, 0xff, 0x04, 0x00, 0x00, 0x00, 
	0x0c, 0x00, 0x00, 0x00, 0xff, 0xff, 0xff, 0xff, 0x04, 0x00, 0x00, 0x00, 
	0x10, 0x00, 0x00, 0x00, 0xae, 0xfd, 0xff, 0xff, 0x04, 0x00, 0x00, 0x00, 
	0x04, 0x00, 0x00, 0x00, 0xc0, 0x57, 0xc9, 0xbe, 0xbe, 0xfd, 0xff, 0xff, 
	0x04, 0x00, 0x00, 0x00, 0x40, 0x00, 0x00, 0x00, 0x6e, 0xac, 0x39, 0x3e, 
	0xc6, 0xd1, 0xde, 0x3e, 0x62, 0x01, 0xc1, 0x3d, 0x1d, 0x72, 0xbb, 0xbe, 
	0x24, 0xef, 0x1f, 0xbe, 0x1a, 0x4c, 0xf4, 0x3e, 0x13, 0x41, 0x9e, 0xbe, 
	0xe2, 0xc8, 0x83, 0xbe, 0x72, 0x5e, 0xa6, 0x3d, 0x45, 0xbc, 0x82, 0xbe, 
	0x19, 0xb0, 0xa4, 0xbe, 0x87, 0x19, 0x8c, 0x3e, 0x5b, 0x97, 0xaa, 0xbe, 
	0x21, 0xdc, 0x7d, 0xbe, 0x5a, 0xc0, 0xd8, 0x3e, 0x06, 0x8d, 0xae, 0xbe, 
	0x0a, 0xfe, 0xff, 0xff, 0x04, 0x00, 0x00, 0x00, 0x40, 0x00, 0x00, 0x00, 
	0x01, 0xae, 0xd4, 0xbe, 0x69, 0xab, 0xeb, 0x3e, 0x69, 0xfa, 0xc8, 0x3e, 
	0x4b, 0xf9, 0xad, 0x3e, 0x0e, 0xb6, 0x6b, 0x3c, 0xb5, 0x4a, 0xdd, 0x3e, 
	0x37, 0x6d, 0xc0, 0x3e, 0x6d, 0x0a, 0x89, 0xbe, 0x88, 0xd7, 0xcf, 0x3e, 
	0x23, 0x09, 0x64, 0x3d, 0x2d, 0x18, 0xd1, 0x3e, 0xe2, 0x49, 0x17, 0xbd, 
	0x06, 0x9c, 0xa6, 0xbe, 0x95, 0xfa, 0x7b, 0x3e, 0x40, 0xe8, 0xb3, 0x3e, 
	0xa6, 0x16, 0xd3, 0x3e, 0x68, 0xef, 0xff, 0xff, 0x5a, 0xfe, 0xff, 0xff, 
	0x04, 0x00, 0x00, 0x00, 0x04, 0x00, 0x00, 0x00, 0x01, 0x00, 0x00, 0x00, 
	0x6a, 0xfe, 0xff, 0xff, 0x04, 0x00, 0x00, 0x00, 0x04, 0x00, 0x00, 0x00, 
	0x00, 0x00, 0x00, 0x00, 0x7a, 0xfe, 0xff, 0xff, 0x04, 0x00, 0x00, 0x00, 
	0x04, 0x00, 0x00, 0x00, 0x40, 0x00, 0x00, 0x00, 0x8a, 0xfe, 0xff, 0xff, 
	0x04, 0x00, 0x00, 0x00, 0x04, 0x00, 0x00, 0x00, 0xfd, 0xff, 0xff, 0xff, 
	0xac, 0xef, 0xff, 0xff, 0xb0, 0xef, 0xff, 0xff, 0x0f, 0x00, 0x00, 0x00, 
	0x4d, 0x4c, 0x49, 0x52, 0x20, 0x43, 0x6f, 0x6e, 0x76, 0x65, 0x72, 0x74, 
	0x65, 0x64, 0x2e, 0x00, 0x01, 0x00, 0x00, 0x00, 0x14, 0x00, 0x00, 0x00, 
	0x00, 0x00, 0x0e, 0x00, 0x18, 0x00, 0x14, 0x00, 0x10, 0x00, 0x0c, 0x00, 
	0x08, 0x00, 0x04, 0x00, 0x0e, 0x00, 0x00, 0x00, 0x14, 0x00, 0x00, 0x00, 
	0x1c, 0x00, 0x00, 0x00, 0x48, 0x03, 0x00, 0x00, 0x4c, 0x03, 0x00, 0x00, 
	0x50, 0x03, 0x00, 0x00, 0x04, 0x00, 0x00, 0x00, 0x6d, 0x61, 0x69, 0x6e, 
	0x00, 0x00, 0x00, 0x00, 0x0d, 0x00, 0x00, 0x00, 0x00, 0x03, 0x00, 0x00, 
	0x9c, 0x02, 0x00, 0x00, 0x64, 0x02, 0x00, 0x00, 0x28, 0x02, 0x00, 0x00, 
	0xd4, 0x01, 0x00, 0x00, 0x9c, 0x01, 0x00, 0x00, 0x60, 0x01, 0x00, 0x00, 
	0x10, 0x01, 0x00, 0x00, 0xd0, 0x00, 0x00, 0x00, 0xa8, 0x00, 0x00, 0x00, 
	0x60, 0x00, 0x00, 0x00, 0x28, 0x00, 0x00, 0x00, 0x04, 0x00, 0x00, 0x00, 
	0xd2, 0xfd, 0xff, 0xff, 0x0c, 0x00, 0x00, 0x00, 0x10, 0x00, 0x00, 0x00, 
	0x08, 0x00, 0x00, 0x00, 0x01, 0x00, 0x00, 0x00, 0x1a, 0x00, 0x00, 0x00, 
	0x01, 0x00, 0x00, 0x00, 0x19, 0x00, 0x00, 0x00, 0xc2, 0xfd, 0xff, 0xff, 
	0x14, 0x00, 0x00, 0x00, 0x00, 0x00, 0x00, 0x08, 0x10, 0x00, 0x00, 0x00, 
	0x14, 0x00, 0x00, 0x00, 0x07, 0x00, 0x00, 0x00, 0x74, 0xf0, 0xff, 0xff, 
	0x01, 0x00, 0x00, 0x00, 0x19, 0x00, 0x00, 0x00, 0x03, 0x00, 0x00, 0x00, 
	0x18, 0x00, 0x00, 0x00, 0x0c, 0x00, 0x00, 0x00, 0x08, 0x00, 0x00, 0x00, 
	0xf6, 0xfd, 0xff, 0xff, 0x20, 0x00, 0x00, 0x00, 0x00, 0x00, 0x00, 0x08, 
	0x20, 0x00, 0x00, 0x00, 0x24, 0x00, 0x00, 0x00, 0x07, 0x00, 0x00, 0x00, 
	0x0c, 0x00, 0x08, 0x00, 0x07, 0x00, 0x00, 0x00, 0x00, 0x00, 0x06, 0x00, 
	0x0c, 0x00, 0x00, 0x00, 0x00, 0x00, 0x01, 0x01, 0x01, 0x00, 0x00, 0x00, 
	0x18, 0x00, 0x00, 0x00, 0x03, 0x00, 0x00, 0x00, 0x17, 0x00, 0x00, 0x00, 
	0x0d, 0x00, 0x00, 0x00, 0x06, 0x00, 0x00, 0x00, 0x6a, 0xfe, 0xff, 0xff, 
	0x0c, 0x00, 0x00, 0x00, 0x10, 0x00, 0x00, 0x00, 0x02, 0x00, 0x00, 0x00, 
	0x01, 0x00, 0x00, 0x00, 0x17, 0x00, 0x00, 0x00, 0x02, 0x00, 0x00, 0x00, 
	0x12, 0x00, 0x00, 0x00, 0x16, 0x00, 0x00, 0x00, 0x1a, 0xff, 0xff, 0xff, 
	0x1c, 0x00, 0x00, 0x00, 0x00, 0x00, 0x00, 0x3b, 0x1c, 0x00, 0x00, 0x00, 
	0x20, 0x00, 0x00, 0x00, 0x06, 0x00, 0x00, 0x00, 0x00, 0x00, 0x06, 0x00, 
	0x08, 0x00, 0x04, 0x00, 0x06, 0x00, 0x00, 0x00, 0x02, 0x00, 0x00, 0x00, 
	0x01, 0x00, 0x00, 0x00, 0x16, 0x00, 0x00, 0x00, 0x02, 0x00, 0x00, 0x00, 
	0x15, 0x00, 0x00, 0x00, 0x02, 0x00, 0x00, 0x00, 0x56, 0xff, 0xff, 0xff, 
	0x24, 0x00, 0x00, 0x00, 0x00, 0x00, 0x00, 0x20, 0x24, 0x00, 0x00, 0x00, 
	0x28, 0x00, 0x00, 0x00, 0x05, 0x00, 0x00, 0x00, 0x00, 0x00, 0x0e, 0x00, 
	0x08, 0x00, 0x00, 0x00, 0x00, 0x00, 0x00, 0x00, 0x00, 0x00, 0x04, 0x00, 
	0x0e, 0x00, 0x00, 0x00, 0x01, 0x00, 0x00, 0x00, 0x01, 0x00, 0x00, 0x00, 
	0x15, 0x00, 0x00, 0x00, 0x04, 0x00, 0x00, 0x00, 0x14, 0x00, 0x00, 0x00, 
	0x03, 0x00, 0x00, 0x00, 0x04, 0x00, 0x00, 0x00, 0x04, 0x00, 0x00, 0x00, 
	0xa2, 0xff, 0xff, 0xff, 0x1c, 0x00, 0x00, 0x00, 0x00, 0x00, 0x00, 0x37, 
	0x1c, 0x00, 0x00, 0x00, 0x20, 0x00, 0x00, 0x00, 0x04, 0x00, 0x00, 0x00, 
	0x00, 0x00, 0x06, 0x00, 0x08, 0x00, 0x07, 0x00, 0x06, 0x00, 0x00, 0x00, 
	0x00, 0x00, 0x00, 0x02, 0x01, 0x00, 0x00, 0x00, 0x14, 0x00, 0x00, 0x00, 
	0x01, 0x00, 0x00, 0x00, 0x13, 0x00, 0x00, 0x00, 0x4e, 0xff, 0xff, 0xff, 
	0x0c, 0x00, 0x00, 0x00, 0x10, 0x00, 0x00, 0x00, 0x02, 0x00, 0x00, 0x00, 
	0x01, 0x00, 0x00, 0x00, 0x13, 0x00, 0x00, 0x00, 0x02, 0x00, 0x00, 0x00, 
	0x12, 0x00, 0x00, 0x00, 0x09, 0x00, 0x00, 0x00, 0x00, 0x00, 0x0e, 0x00, 
	0x1a, 0x00, 0x14, 0x00, 0x10, 0x00, 0x0c, 0x00, 0x0b, 0x00, 0x04, 0x00, 
	0x0e, 0x00, 0x00, 0x00, 0x24, 0x00, 0x00, 0x00, 0x00, 0x00, 0x00, 0x05, 
	0x34, 0x00, 0x00, 0x00, 0x38, 0x00, 0x00, 0x00, 0x03, 0x00, 0x00, 0x00, 
	0x00, 0x00, 0x0e, 0x00, 0x18, 0x00, 0x17, 0x00, 0x10, 0x00, 0x0c, 0x00, 
	0x08, 0x00, 0x04, 0x00, 0x0e, 0x00, 0x00, 0x00, 0x01, 0x00, 0x00, 0x00, 
	0x02, 0x00, 0x00, 0x00, 0x01, 0x00, 0x00, 0x00, 0x02, 0x00, 0x00, 0x00, 
	0x00, 0x00, 0x00, 0x01, 0x01, 0x00, 0x00, 0x00, 0x12, 0x00, 0x00, 0x00, 
	0x01, 0x00, 0x00, 0x00, 0x11, 0x00, 0x00, 0x00, 0x42, 0xff, 0xff, 0xff, 
	0x10, 0x00, 0x00, 0x00, 0x00, 0x00, 0x00, 0x34, 0x0c, 0x00, 0x00, 0x00, 
	0x10, 0x00, 0x00, 0x00, 0x50, 0xf2, 0xff, 0xff, 0x01, 0x00, 0x00, 0x00, 
	0x11, 0x00, 0x00, 0x00, 0x02, 0x00, 0x00, 0x00, 0x10, 0x00, 0x00, 0x00, 
	0x05, 0x00, 0x00, 0x00, 0x00, 0x00, 0x0a, 0x00, 0x10, 0x00, 0x0c, 0x00, 
	0x08, 0x00, 0x04, 0x00, 0x0a, 0x00, 0x00, 0x00, 0x0c, 0x00, 0x00, 0x00, 
	0x10, 0x00, 0x00, 0x00, 0x02, 0x00, 0x00, 0x00, 0x01, 0x00, 0x00, 0x00, 
	0x10, 0x00, 0x00, 0x00, 0x02, 0x00, 0x00, 0x00, 0x0f, 0x00, 0x00, 0x00, 
	0x0a, 0x00, 0x00, 0x00, 0x00, 0x00, 0x0e, 0x00, 0x18, 0x00, 0x14, 0x00, 
	0x10, 0x00, 0x0c, 0x00, 0x0b, 0x00, 0x04, 0x00, 0x0e, 0x00, 0x00, 0x00, 
	0x20, 0x00, 0x00, 0x00, 0x00, 0x00, 0x00, 0x01, 0x2c, 0x00, 0x00, 0x00, 
	0x30, 0x00, 0x00, 0x00, 0x01, 0x00, 0x00, 0x00, 0x0c, 0x00, 0x14, 0x00, 
	0x13, 0x00, 0x0c, 0x00, 0x08, 0x00, 0x07, 0x00, 0x0c, 0x00, 0x00, 0x00, 
	0x00, 0x00, 0x00, 0x01, 0x01, 0x00, 0x00, 0x00, 0x01, 0x00, 0x00, 0x00, 
	0x00, 0x00, 0x00, 0x01, 0x01, 0x00, 0x00, 0x00, 0x0f, 0x00, 0x00, 0x00, 
	0x03, 0x00, 0x00, 0x00, 0x0e, 0x00, 0x00, 0x00, 0x0b, 0x00, 0x00, 0x00, 
	0x07, 0x00, 0x00, 0x00, 0x00, 0x00, 0x0e, 0x00, 0x14, 0x00, 0x00, 0x00, 
	0x10, 0x00, 0x0c, 0x00, 0x0b, 0x00, 0x04, 0x00, 0x0e, 0x00, 0x00, 0x00, 
	0x10, 0x00, 0x00, 0x00, 0x00, 0x00, 0x00, 0x34, 0x0c, 0x00, 0x00, 0x00, 
	0x10, 0x00, 0x00, 0x00, 0x1c, 0xf3, 0xff, 0xff, 0x01, 0x00, 0x00, 0x00, 
	0x0e, 0x00, 0x00, 0x00, 0x02, 0x00, 0x00, 0x00, 0x00, 0x00, 0x00, 0x00, 
	0x01, 0x00, 0x00, 0x00, 0x01, 0x00, 0x00, 0x00, 0x1a, 0x00, 0x00, 0x00, 
	0x01, 0x00, 0x00, 0x00, 0x00, 0x00, 0x00, 0x00, 0x1b, 0x00, 0x00, 0x00, 
	0x8c, 0x0c, 0x00, 0x00, 0x14, 0x0c, 0x00, 0x00, 0xa8, 0x0b, 0x00, 0x00, 
	0x4c, 0x0b, 0x00, 0x00, 0x0c, 0x0b, 0x00, 0x00, 0xa8, 0x0a, 0x00, 0x00, 
	0x44, 0x0a, 0x00, 0x00, 0x5c, 0x09, 0x00, 0x00, 0x14, 0x09, 0x00, 0x00, 
	0xb4, 0x08, 0x00, 0x00, 0x58, 0x08, 0x00, 0x00, 0xfc, 0x07, 0x00, 0x00, 
	0xac, 0x07, 0x00, 0x00, 0x80, 0x06, 0x00, 0x00, 0x00, 0x06, 0x00, 0x00, 
	0x0c, 0x05, 0x00, 0x00, 0x40, 0x04, 0x00, 0x00, 0xbc, 0x03, 0x00, 0x00, 
	0x44, 0x03, 0x00, 0x00, 0xcc, 0x02, 0x00, 0x00, 0x7c, 0x02, 0x00, 0x00, 
	0x28, 0x02, 0x00, 0x00, 0xd0, 0x01, 0x00, 0x00, 0x70, 0x01, 0x00, 0x00, 
	0xdc, 0x00, 0x00, 0x00, 0x60, 0x00, 0x00, 0x00, 0x04, 0x00, 0x00, 0x00, 
	0xf6, 0xf3, 0xff, 0xff, 0x00, 0x00, 0x00, 0x01, 0x14, 0x00, 0x00, 0x00, 
	0x1c, 0x00, 0x00, 0x00, 0x1c, 0x00, 0x00, 0x00, 0x1b, 0x00, 0x00, 0x00, 
	0x34, 0x00, 0x00, 0x00, 0x02, 0x00, 0x00, 0x00, 0xff, 0xff, 0xff, 0xff, 
	0x01, 0x00, 0x00, 0x00, 0xdc, 0xf3, 0xff, 0xff, 0x1b, 0x00, 0x00, 0x00, 
	0x53, 0x74, 0x61, 0x74, 0x65, 0x66, 0x75, 0x6c, 0x50, 0x61, 0x72, 0x74, 
	0x69, 0x74, 0x69, 0x6f, 0x6e, 0x65, 0x64, 0x43, 0x61, 0x6c, 0x6c, 0x5f, 
	0x31, 0x3a, 0x30, 0x00, 0x02, 0x00, 0x00, 0x00, 0x01, 0x00, 0x00, 0x00, 
	0x01, 0x00, 0x00, 0x00, 0x4e, 0xf4, 0xff, 0xff, 0x00, 0x00, 0x00, 0x01, 
	0x14, 0x00, 0x00, 0x00, 0x1c, 0x00, 0x00, 0x00, 0x1c, 0x00, 0x00, 0x00, 
	0x1a, 0x00, 0x00, 0x00, 0x54, 0x00, 0x00, 0x00, 0x02, 0x00, 0x00, 0x00, 
	0xff, 0xff, 0xff, 0xff, 0x01, 0x00, 0x00, 0x00, 0x34, 0xf4, 0xff, 0xff, 
	0x38, 0x00, 0x00, 0x00, 0x73, 0x65, 0x71, 0x75, 0x65, 0x6e, 0x74, 0x69, 
	0x61, 0x6c, 0x5f, 0x31, 0x2f, 0x64, 0x65, 0x6e, 0x73, 0x65, 0x5f, 0x31, 
	0x5f, 0x32, 0x2f, 0x4d, 0x61, 0x74, 0x4d, 0x75, 0x6c, 0x3b, 0x73, 0x65, 
	0x71, 0x75, 0x65, 0x6e, 0x74, 0x69, 0x61, 0x6c, 0x5f, 0x31, 0x2f, 0x64, 
	0x65, 0x6e, 0x73, 0x65, 0x5f, 0x31, 0x5f, 0x32, 0x2f, 0x41, 0x64, 0x64, 
	0x00, 0x00, 0x00, 0x00, 0x02, 0x00, 0x00, 0x00, 0x01, 0x00, 0x00, 0x00, 
	0x01, 0x00, 0x00, 0x00, 0xc6, 0xf4, 0xff, 0xff, 0x00, 0x00, 0x00, 0x01, 
	0x14, 0x00, 0x00, 0x00, 0x1c, 0x00, 0x00, 0x00, 0x1c, 0x00, 0x00, 0x00, 
	0x19, 0x00, 0x00, 0x00, 0x6c, 0x00, 0x00, 0x00, 0x02, 0x00, 0x00, 0x00, 
	0xff, 0xff, 0xff, 0xff, 0x10, 0x00, 0x00, 0x00, 0xac, 0xf4, 0xff, 0xff, 
	0x52, 0x00, 0x00, 0x00, 0x73, 0x65, 0x71, 0x75, 0x65, 0x6e, 0x74, 0x69, 
	0x61, 0x6c, 0x5f, 0x31, 0x2f, 0x64, 0x65, 0x6e, 0x73, 0x65, 0x5f, 0x31, 
	0x2f, 0x4d, 0x61, 0x74, 0x4d, 0x75, 0x6c, 0x3b, 0x73, 0x65, 0x71, 0x75, 
	0x65, 0x6e, 0x74, 0x69, 0x61, 0x6c, 0x5f, 0x31, 0x2f, 0x64, 0x65, 0x6e, 
	0x73, 0x65, 0x5f, 0x31, 0x2f, 0x52, 0x65, 0x6c, 0x75, 0x3b, 0x73, 0x65, 
	0x71, 0x75, 0x65, 0x6e, 0x74, 0x69, 0x61, 0x6c, 0x5f, 0x31, 0x2f, 0x64, 
	0x65, 0x6e, 0x73, 0x65, 0x5f, 0x31, 0x2f, 0x42, 0x69, 0x61, 0x73, 0x41, 
	0x64, 0x64, 0x00, 0x00, 0x02, 0x00, 0x00, 0x00, 0x01, 0x00, 0x00, 0x00, 
	0x10, 0x00, 0x00, 0x00, 0x56, 0xf5, 0xff, 0xff, 0x00, 0x00, 0x00, 0x01, 
	0x14, 0x00, 0x00, 0x00, 0x1c, 0x00, 0x00, 0x00, 0x1c, 0x00, 0x00, 0x00, 
	0x18, 0x00, 0x00, 0x00, 0x38, 0x00, 0x00, 0x00, 0x02, 0x00, 0x00, 0x00, 
	0xff, 0xff, 0xff, 0xff, 0x40, 0x00, 0x00, 0x00, 0x3c, 0xf5, 0xff, 0xff, 
	0x1e, 0x00, 0x00, 0x00, 0x73, 0x65, 0x71, 0x75, 0x65, 0x6e, 0x74, 0x69, 
	0x61, 0x6c, 0x5f, 0x31, 0x2f, 0x66, 0x6c, 0x61, 0x74, 0x74, 0x65, 0x6e, 
	0x5f, 0x31, 0x2f, 0x52, 0x65, 0x73, 0x68, 0x61, 0x70, 0x65, 0x00, 0x00, 
	0x02, 0x00, 0x00, 0x00, 0x01, 0x00, 0x00, 0x00, 0x40, 0x00, 0x00, 0x00, 
	0x26, 0xf6, 0xff, 0xff, 0x00, 0x00, 0x00, 0x01, 0x14, 0x00, 0x00, 0x00, 
	0x14, 0x00, 0x00, 0x00, 0x17, 0x00, 0x00, 0x00, 0x00, 0x00, 0x00, 0x02, 
	0x34, 0x00, 0x00, 0x00, 0x8c, 0xf5, 0xff, 0xff, 0x24, 0x00, 0x00, 0x00, 
	0x73, 0x65, 0x71, 0x75, 0x65, 0x6e, 0x74, 0x69, 0x61, 0x6c, 0x5f, 0x31, 
	0x2f, 0x66, 0x6c, 0x61, 0x74, 0x74, 0x65, 0x6e, 0x5f, 0x31, 0x2f, 0x52, 
	0x65, 0x73, 0x68, 0x61, 0x70, 0x65, 0x2f, 0x73, 0x68, 0x61, 0x70, 0x65, 
	0x00, 0x00, 0x00, 0x00, 0x01, 0x00, 0x00, 0x00, 0x02, 0x00, 0x00, 0x00, 
	0x7a, 0xf6, 0xff, 0xff, 0x00, 0x00, 0x00, 0x01, 0x14, 0x00, 0x00, 0x00, 
	0x14, 0x00, 0x00, 0x00, 0x16, 0x00, 0x00, 0x00, 0x00, 0x00, 0x00, 0x02, 
	0x34, 0x00, 0x00, 0x00, 0xe0, 0xf5, 0xff, 0xff, 0x24, 0x00, 0x00, 0x00, 
	0x73, 0x65, 0x71, 0x75, 0x65, 0x6e, 0x74, 0x69, 0x61, 0x6c, 0x5f, 0x31, 
	0x2f, 0x66, 0x6c, 0x61, 0x74, 0x74, 0x65, 0x6e, 0x5f, 0x31, 0x2f, 0x73, 
	0x74, 0x72, 0x69, 0x64, 0x65, 0x64, 0x5f, 0x73, 0x6c, 0x69, 0x63, 0x65, 
	0x00, 0x00, 0x00, 0x00, 0x00, 0x00, 0x00, 0x00, 0xca, 0xf6, 0xff, 0xff, 
	0x00, 0x00, 0x00, 0x01, 0x14, 0x00, 0x00, 0x00, 0x14, 0x00, 0x00, 0x00, 
	0x15, 0x00, 0x00, 0x00, 0x00, 0x00, 0x00, 0x02, 0x2c, 0x00, 0x00, 0x00, 
	0x30, 0xf6, 0xff, 0xff, 0x1c, 0x00, 0x00, 0x00, 0x73, 0x65, 0x71, 0x75, 
	0x65, 0x6e, 0x74, 0x69, 0x61, 0x6c, 0x5f, 0x31, 0x2f, 0x66, 0x6c, 0x61, 
	0x74, 0x74, 0x65, 0x6e, 0x5f, 0x31, 0x2f, 0x53, 0x68, 0x61, 0x70, 0x65, 
	0x00, 0x00, 0x00, 0x00, 0x01, 0x00, 0x00, 0x00, 0x03, 0x00, 0x00, 0x00, 
	0xa2, 0xf6, 0xff, 0xff, 0x00, 0x00, 0x00, 0x01, 0x14, 0x00, 0x00, 0x00, 
	0x20, 0x00, 0x00, 0x00, 0x20, 0x00, 0x00, 0x00, 0x14, 0x00, 0x00, 0x00, 
	0x4c, 0x00, 0x00, 0x00, 0x03, 0x00, 0x00, 0x00, 0xff, 0xff, 0xff, 0xff, 
	0x04, 0x00, 0x00, 0x00, 0x10, 0x00, 0x00, 0x00, 0x8c, 0xf6, 0xff, 0xff, 
	0x2f, 0x00, 0x00, 0x00, 0x73, 0x65, 0x71, 0x75, 0x65, 0x6e, 0x74, 0x69, 
	0x61, 0x6c, 0x5f, 0x31, 0x2f, 0x6d, 0x61, 0x78, 0x5f, 0x70, 0x6f, 0x6f, 
	0x6c, 0x69, 0x6e, 0x67, 0x31, 0x64, 0x5f, 0x31, 0x2f, 0x4d, 0x61, 0x78, 
	0x50, 0x6f, 0x6f, 0x6c, 0x31, 0x64, 0x2f, 0x53, 0x71, 0x75, 0x65, 0x65, 
	0x7a, 0x65, 0x31, 0x00, 0x03, 0x00, 0x00, 0x00, 0x01, 0x00, 0x00, 0x00, 
	0x04, 0x00, 0x00, 0x00, 0x10, 0x00, 0x00, 0x00, 0x16, 0xf7, 0xff, 0xff, 
	0x00, 0x00, 0x00, 0x01, 0x14, 0x00, 0x00, 0x00, 0x24, 0x00, 0x00, 0x00, 
	0x24, 0x00, 0x00, 0x00, 0x13, 0x00, 0x00, 0x00, 0x48, 0x00, 0x00, 0x00, 
	0x04, 0x00, 0x00, 0x00, 0xff, 0xff, 0xff, 0xff, 0x01, 0x00, 0x00, 0x00, 
	0x04, 0x00, 0x00, 0x00, 0x10, 0x00, 0x00, 0x00, 0x04, 0xf7, 0xff, 0xff, 
	0x26, 0x00, 0x00, 0x00, 0x73, 0x65, 0x71, 0x75, 0x65, 0x6e, 0x74, 0x69, 
	0x61, 0x6c, 0x5f, 0x31, 0x2f, 0x6d, 0x61, 0x78, 0x5f, 0x70, 0x6f, 0x6f, 
	0x6c, 0x69, 0x6e, 0x67, 0x31, 0x64, 0x5f, 0x31, 0x2f, 0x4d, 0x61, 0x78, 
	0x50, 0x6f, 0x6f, 0x6c, 0x31, 0x64, 0x00, 0x00, 0x04, 0x00, 0x00, 0x00, 
	0x01, 0x00, 0x00, 0x00, 0x01, 0x00, 0x00, 0x00, 0x04, 0x00, 0x00, 0x00, 
	0x10, 0x00, 0x00, 0x00, 0x8a, 0xf7, 0xff, 0xff, 0x00, 0x00, 0x00, 0x01, 
	0x14, 0x00, 0x00, 0x00, 0x24, 0x00, 0x00, 0x00, 0x24, 0x00, 0x00, 0x00, 
	0x12, 0x00, 0x00, 0x00, 0x54, 0x00, 0x00, 0x00, 0x04, 0x00, 0x00, 0x00, 
	0xff, 0xff, 0xff, 0xff, 0x01, 0x00, 0x00, 0x00, 0x08, 0x00, 0x00, 0x00, 
	0x10, 0x00, 0x00, 0x00, 0x78, 0xf7, 0xff, 0xff, 0x31, 0x00, 0x00, 0x00, 
	0x73, 0x65, 0x71, 0x75, 0x65, 0x6e, 0x74, 0x69, 0x61, 0x6c, 0x5f, 0x31, 
	0x2f, 0x6d, 0x61, 0x78, 0x5f, 0x70, 0x6f, 0x6f, 0x6c, 0x69, 0x6e, 0x67, 
	0x31, 0x64, 0x5f, 0x31, 0x2f, 0x4d, 0x61, 0x78, 0x50, 0x6f, 0x6f, 0x6c, 
	0x31, 0x64, 0x2f, 0x45, 0x78, 0x70, 0x61, 0x6e, 0x64, 0x44, 0x69, 0x6d, 
	0x73, 0x00, 0x00, 0x00, 0x04, 0x00, 0x00, 0x00, 0x01, 0x00, 0x00, 0x00, 
	0x01, 0x00, 0x00, 0x00, 0x08, 0x00, 0x00, 0x00, 0x10, 0x00, 0x00, 0x00, 
	0x0a, 0xf8, 0xff, 0xff, 0x00, 0x00, 0x00, 0x01, 0x14, 0x00, 0x00, 0x00, 
	0x20, 0x00, 0x00, 0x00, 0x20, 0x00, 0x00, 0x00, 0x11, 0x00, 0x00, 0x00, 
	0xa0, 0x00, 0x00, 0x00, 0x03, 0x00, 0x00, 0x00, 0xff, 0xff, 0xff, 0xff, 
	0x08, 0x00, 0x00, 0x00, 0x10, 0x00, 0x00, 0x00, 0xf4, 0xf7, 0xff, 0xff, 
	0x80, 0x00, 0x00, 0x00, 0x73, 0x65, 0x71, 0x75, 0x65, 0x6e, 0x74, 0x69, 
	0x61, 0x6c, 0x5f, 0x31, 0x2f, 0x63, 0x6f, 0x6e, 0x76, 0x31, 0x64, 0x5f, 
	0x31, 0x2f, 0x52, 0x65, 0x6c, 0x75, 0x3b, 0x73, 0x65, 0x71, 0x75, 0x65, 
	0x6e, 0x74, 0x69, 0x61, 0x6c, 0x5f, 0x31, 0x2f, 0x63, 0x6f, 0x6e, 0x76, 
	0x31, 0x64, 0x5f, 0x31, 0x2f, 0x42, 0x69, 0x61, 0x73, 0x41, 0x64, 0x64, 
	0x3b, 0x73, 0x65, 0x71, 0x75, 0x65, 0x6e, 0x74, 0x69, 0x61, 0x6c, 0x5f, 
	0x31, 0x2f, 0x63, 0x6f, 0x6e, 0x76, 0x31, 0x64, 0x5f, 0x31, 0x2f, 0x63, 
	0x6f, 0x6e, 0x76, 0x6f, 0x6c, 0x75, 0x74, 0x69, 0x6f, 0x6e, 0x2f, 0x53, 
	0x71, 0x75, 0x65, 0x65, 0x7a, 0x65, 0x3b, 0x73, 0x65, 0x71, 0x75, 0x65, 
	0x6e, 0x74, 0x69, 0x61, 0x6c, 0x5f, 0x31, 0x2f, 0x63, 0x6f, 0x6e, 0x76, 
	0x31, 0x64, 0x5f, 0x31, 0x2f, 0x53, 0x71, 0x75, 0x65, 0x65, 0x7a, 0x65, 
	0x00, 0x00, 0x00, 0x00, 0x03, 0x00, 0x00, 0x00, 0x01, 0x00, 0x00, 0x00, 
	0x08, 0x00, 0x00, 0x00, 0x10, 0x00, 0x00, 0x00, 0xd2, 0xf8, 0xff, 0xff, 
	0x00, 0x00, 0x00, 0x01, 0x14, 0x00, 0x00, 0x00, 0x24, 0x00, 0x00, 0x00, 
	0x24, 0x00, 0x00, 0x00, 0x10, 0x00, 0x00, 0x00, 0xc4, 0x00, 0x00, 0x00, 
	0x04, 0x00, 0x00, 0x00, 0xff, 0xff, 0xff, 0xff, 0x01, 0x00, 0x00, 0x00, 
	0x08, 0x00, 0x00, 0x00, 0x10, 0x00, 0x00, 0x00, 0xc0, 0xf8, 0xff, 0xff, 
	0xa3, 0x00, 0x00, 0x00, 0x73, 0x65, 0x71, 0x75, 0x65, 0x6e, 0x74, 0x69, 
	0x61, 0x6c, 0x5f, 0x31, 0x2f, 0x63, 0x6f, 0x6e, 0x76, 0x31, 0x64, 0x5f, 
	0x31, 0x2f, 0x52, 0x65, 0x6c, 0x75, 0x3b, 0x73, 0x65, 0x71, 0x75, 0x65, 
	0x6e, 0x74, 0x69, 0x61, 0x6c, 0x5f, 0x31, 0x2f, 0x63, 0x6f, 0x6e, 0x76, 
	0x31, 0x64, 0x5f, 0x31, 0x2f, 0x42, 0x69, 0x61, 0x73, 0x41, 0x64, 0x64, 
	0x3b, 0x73, 0x65, 0x71, 0x75, 0x65, 0x6e, 0x74, 0x69, 0x61, 0x6c, 0x5f, 
	0x31, 0x2f, 0x63, 0x6f, 0x6e, 0x76, 0x31, 0x64, 0x5f, 0x31, 0x2f, 0x63, 
	0x6f, 0x6e, 0x76, 0x6f, 0x6c, 0x75, 0x74, 0x69, 0x6f, 0x6e, 0x2f, 0x53, 
	0x71, 0x75, 0x65, 0x65, 0x7a, 0x65, 0x3b, 0x73, 0x65, 0x71, 0x75, 0x65, 
	0x6e, 0x74, 0x69, 0x61, 0x6c, 0x5f, 0x31, 0x2f, 0x63, 0x6f, 0x6e, 0x76, 
	0x31, 0x64, 0x5f, 0x31, 0x2f, 0x53, 0x71, 0x75, 0x65, 0x65, 0x7a, 0x65, 
	0x3b, 0x73, 0x65, 0x71, 0x75, 0x65, 0x6e, 0x74, 0x69, 0x61, 0x6c, 0x5f, 
	0x31, 0x2f, 0x63, 0x6f, 0x6e, 0x76, 0x31, 0x64, 0x5f, 0x31, 0x2f, 0x63, 
	0x6f, 0x6e, 0x76, 0x6f, 0x6c, 0x75, 0x74, 0x69, 0x6f, 0x6e, 0x31, 0x00, 
	0x04, 0x00, 0x00, 0x00, 0x01, 0x00, 0x00, 0x00, 0x01, 0x00, 0x00, 0x00, 
	0x08, 0x00, 0x00, 0x00, 0x10, 0x00, 0x00, 0x00, 0xc2, 0xf9, 0xff, 0xff, 
	0x00, 0x00, 0x00, 0x01, 0x14, 0x00, 0x00, 0x00, 0x24, 0x00, 0x00, 0x00, 
	0x24, 0x00, 0x00, 0x00, 0x0f, 0x00, 0x00, 0x00, 0x50, 0x00, 0x00, 0x00, 
	0x04, 0x00, 0x00, 0x00, 0xff, 0xff, 0xff, 0xff, 0x01, 0x00, 0x00, 0x00, 
	0x0a, 0x00, 0x00, 0x00, 0x06, 0x00, 0x00, 0x00, 0xb0, 0xf9, 0xff, 0xff, 
	0x2c, 0x00, 0x00, 0x00, 0x73, 0x65, 0x71, 0x75, 0x65, 0x6e, 0x74, 0x69, 
	0x61, 0x6c, 0x5f, 0x31, 0x2f, 0x63, 0x6f, 0x6e, 0x76, 0x31, 0x64, 0x5f, 
	0x31, 0x2f, 0x63, 0x6f, 0x6e, 0x76, 0x6f, 0x6c, 0x75, 0x74, 0x69, 0x6f, 
	0x6e, 0x2f, 0x45, 0x78, 0x70, 0x61, 0x6e, 0x64, 0x44, 0x69, 0x6d, 0x73, 
	0x00, 0x00, 0x00, 0x00, 0x04, 0x00, 0x00, 0x00, 0x01, 0x00, 0x00, 0x00, 
	0x01, 0x00, 0x00, 0x00, 0x0a, 0x00, 0x00, 0x00, 0x06, 0x00, 0x00, 0x00, 
	0xb2, 0xfa, 0xff, 0xff, 0x00, 0x00, 0x00, 0x01, 0x20, 0x00, 0x00, 0x00, 
	0xf0, 0x00, 0x00, 0x00, 0x0e, 0x00, 0x00, 0x00, 0x00, 0x00, 0x00, 0x09, 
	0x04, 0x01, 0x00, 0x00, 0x0c, 0x00, 0x0c, 0x00, 0x00, 0x00, 0x00, 0x00, 
	0x08, 0x00, 0x04, 0x00, 0x0c, 0x00, 0x00, 0x00, 0x08, 0x00, 0x00, 0x00, 
	0x88, 0x00, 0x00, 0x00, 0x10, 0x00, 0x00, 0x00, 0x00, 0x00, 0x00, 0x00, 
	0x00, 0x00, 0x00, 0x00, 0x00, 0x00, 0x00, 0x00, 0x00, 0x00, 0x00, 0x00, 
	0x00, 0x00, 0x00, 0x00, 0x00, 0x00, 0x00, 0x00, 0x00, 0x00, 0x00, 0x00, 
	0x00, 0x00, 0x00, 0x00, 0x00, 0x00, 0x00, 0x00, 0x00, 0x00, 0x00, 0x00, 
	0x00, 0x00, 0x00, 0x00, 0x00, 0x00, 0x00, 0x00, 0x00, 0x00, 0x00, 0x00, 
	0x00, 0x00, 0x00, 0x00, 0x00, 0x00, 0x00, 0x00, 0x00, 0x00, 0x00, 0x00, 
	0x00, 0x00, 0x00, 0x00, 0x00, 0x00, 0x00, 0x00, 0x00, 0x00, 0x00, 0x00, 
	0x00, 0x00, 0x00, 0x00, 0x00, 0x00, 0x00, 0x00, 0x00, 0x00, 0x00, 0x00, 
	0x00, 0x00, 0x00, 0x00, 0x00, 0x00, 0x00, 0x00, 0x00, 0x00, 0x00, 0x00, 
	0x00, 0x00, 0x00, 0x00, 0x00, 0x00, 0x00, 0x00, 0x00, 0x00, 0x00, 0x00, 
	0x00, 0x00, 0x00, 0x00, 0x00, 0x00, 0x00, 0x00, 0x00, 0x00, 0x00, 0x00, 
	0x00, 0x00, 0x00, 0x00, 0x10, 0x00, 0x00, 0x00, 0x3b, 0xfd, 0x46, 0x3b, 
	0x16, 0x52, 0x2b, 0x3b, 0x4f, 0xf6, 0x25, 0x3b, 0x6c, 0x18, 0x30, 0x3b, 
	0x81, 0x34, 0x41, 0x3b, 0x34, 0xad, 0x43, 0x3b, 0x22, 0xba, 0x45, 0x3b, 
	0x9a, 0x3a, 0x2b, 0x3b, 0x14, 0x8b, 0x25, 0x3b, 0xb7, 0xc8, 0x56, 0x3b, 
	0xe3, 0x68, 0x28, 0x3b, 0x1b, 0x93, 0x1d, 0x3b, 0x7d, 0xf0, 0x3b, 0x3b, 
	0xe8, 0xd8, 0x2b, 0x3b, 0xef, 0x3e, 0x1e, 0x3b, 0x1b, 0xfd, 0x39, 0x3b, 
	0x1b, 0x00, 0x00, 0x00, 0x73, 0x65, 0x71, 0x75, 0x65, 0x6e, 0x74, 0x69, 
	0x61, 0x6c, 0x5f, 0x31, 0x2f, 0x64, 0x65, 0x6e, 0x73, 0x65, 0x5f, 0x31, 
	0x2f, 0x4d, 0x61, 0x74, 0x4d, 0x75, 0x6c, 0x00, 0x02, 0x00, 0x00, 0x00, 
	0x10, 0x00, 0x00, 0x00, 0x40, 0x00, 0x00, 0x00, 0x96, 0xfd, 0xff, 0xff, 
	0x00, 0x00, 0x00, 0x01, 0x10, 0x00, 0x00, 0x00, 0x10, 0x00, 0x00, 0x00, 
	0x0d, 0x00, 0x00, 0x00, 0x2c, 0x00, 0x00, 0x00, 0x3c, 0xfb, 0xff, 0xff, 
	0x1d, 0x00, 0x00, 0x00, 0x73, 0x65, 0x71, 0x75, 0x65, 0x6e, 0x74, 0x69, 
	0x61, 0x6c, 0x5f, 0x31, 0x2f, 0x64, 0x65, 0x6e, 0x73, 0x65, 0x5f, 0x31, 
	0x5f, 0x32, 0x2f, 0x4d, 0x61, 0x74, 0x4d, 0x75, 0x6c, 0x00, 0x00, 0x00, 
	0x02, 0x00, 0x00, 0x00, 0x01, 0x00, 0x00, 0x00, 0x10, 0x00, 0x00, 0x00, 
	0xe2, 0xfd, 0xff, 0xff, 0x00, 0x00, 0x00, 0x01, 0x10, 0x00, 0x00, 0x00, 
	0x10, 0x00, 0x00, 0x00, 0x0c, 0x00, 0x00, 0x00, 0x30, 0x00, 0x00, 0x00, 
	0x88, 0xfb, 0xff, 0xff, 0x21, 0x00, 0x00, 0x00, 0x73, 0x65, 0x71, 0x75, 
	0x65, 0x6e, 0x74, 0x69, 0x61, 0x6c, 0x5f, 0x31, 0x2f, 0x63, 0x6f, 0x6e, 
	0x76, 0x31, 0x64, 0x5f, 0x31, 0x2f, 0x63, 0x6f, 0x6e, 0x76, 0x6f, 0x6c, 
	0x75, 0x74, 0x69, 0x6f, 0x6e, 0x00, 0x00, 0x00, 0x04, 0x00, 0x00, 0x00, 
	0x10, 0x00, 0x00, 0x00, 0x01, 0x00, 0x00, 0x00, 0x03, 0x00, 0x00, 0x00, 
	0x06, 0x00, 0x00, 0x00, 0x7e, 0xfc, 0xff, 0xff, 0x00, 0x00, 0x00, 0x01, 
	0x14, 0x00, 0x00, 0x00, 0x14, 0x00, 0x00, 0x00, 0x0b, 0x00, 0x00, 0x00, 
	0x00, 0x00, 0x00, 0x02, 0x38, 0x00, 0x00, 0x00, 0xe4, 0xfb, 0xff, 0xff, 
	0x29, 0x00, 0x00, 0x00, 0x73, 0x65, 0x71, 0x75, 0x65, 0x6e, 0x74, 0x69, 
	0x61, 0x6c, 0x5f, 0x31, 0x2f, 0x63, 0x6f, 0x6e, 0x76, 0x31, 0x64, 0x5f, 
	0x31, 0x2f, 0x63, 0x6f, 0x6e, 0x76, 0x6f, 0x6c, 0x75, 0x74, 0x69, 0x6f, 
	0x6e, 0x2f, 0x53, 0x71, 0x75, 0x65, 0x65, 0x7a, 0x65, 0x00, 0x00, 0x00, 
	0x01, 0x00, 0x00, 0x00, 0x03, 0x00, 0x00, 0x00, 0xd6, 0xfc, 0xff, 0xff, 
	0x00, 0x00, 0x00, 0x01, 0x14, 0x00, 0x00, 0x00, 0x14, 0x00, 0x00, 0x00, 
	0x0a, 0x00, 0x00, 0x00, 0x00, 0x00, 0x00, 0x02, 0x3c, 0x00, 0x00, 0x00, 
	0x3c, 0xfc, 0xff, 0xff, 0x2e, 0x00, 0x00, 0x00, 0x73, 0x65, 0x71, 0x75, 
	0x65, 0x6e, 0x74, 0x69, 0x61, 0x6c, 0x5f, 0x31, 0x2f, 0x6d, 0x61, 0x78, 
	0x5f, 0x70, 0x6f, 0x6f, 0x6c, 0x69, 0x6e, 0x67, 0x31, 0x64, 0x5f, 0x31, 
	0x2f, 0x4d, 0x61, 0x78, 0x50, 0x6f, 0x6f, 0x6c, 0x31, 0x64, 0x2f, 0x53, 
	0x71, 0x75, 0x65, 0x65, 0x7a, 0x65, 0x00, 0x00, 0x01, 0x00, 0x00, 0x00, 
	0x03, 0x00, 0x00, 0x00, 0xee, 0xfe, 0xff, 0xff, 0x00, 0x00, 0x00, 0x01, 
	0x10, 0x00, 0x00, 0x00, 0x10, 0x00, 0x00, 0x00, 0x09, 0x00, 0x00, 0x00, 
	0x28, 0x00, 0x00, 0x00, 0x94, 0xfc, 0xff, 0xff, 0x1a, 0x00, 0x00, 0x00, 
	0x73, 0x65, 0x71, 0x75, 0x65, 0x6e, 0x74, 0x69, 0x61, 0x6c, 0x5f, 0x31, 
	0x2f, 0x64, 0x65, 0x6e, 0x73, 0x65, 0x5f, 0x31, 0x5f, 0x32, 0x2f, 0x41, 
	0x64, 0x64, 0x00, 0x00, 0x01, 0x00, 0x00, 0x00, 0x01, 0x00, 0x00, 0x00, 
	0x32, 0xff, 0xff, 0xff, 0x00, 0x00, 0x00, 0x01, 0x10, 0x00, 0x00, 0x00, 
	0x10, 0x00, 0x00, 0x00, 0x08, 0x00, 0x00, 0x00, 0xb0, 0x00, 0x00, 0x00, 
	0xd8, 0xfc, 0xff, 0xff, 0xa2, 0x00, 0x00, 0x00, 0x73, 0x65, 0x71, 0x75, 
	0x65, 0x6e, 0x74, 0x69, 0x61, 0x6c, 0x5f, 0x31, 0x2f, 0x63, 0x6f, 0x6e, 
	0x76, 0x31, 0x64, 0x5f, 0x31, 0x2f, 0x52, 0x65, 0x6c, 0x75, 0x3b, 0x73, 
	0x65, 0x71, 0x75, 0x65, 0x6e, 0x74, 0x69, 0x61, 0x6c, 0x5f, 0x31, 0x2f, 
	0x63, 0x6f, 0x6e, 0x76, 0x31, 0x64, 0x5f, 0x31, 0x2f, 0x42, 0x69, 0x61, 
	0x73, 0x41, 0x64, 0x64, 0x3b, 0x73, 0x65, 0x71, 0x75, 0x65, 0x6e, 0x74, 
	0x69, 0x61, 0x6c, 0x5f, 0x31, 0x2f, 0x63, 0x6f, 0x6e, 0x76, 0x31, 0x64, 
	0x5f, 0x31, 0x2f, 0x63, 0x6f, 0x6e, 0x76, 0x6f, 0x6c, 0x75, 0x74, 0x69, 
	0x6f, 0x6e, 0x2f, 0x53, 0x71, 0x75, 0x65, 0x65, 0x7a, 0x65, 0x3b, 0x73, 
	0x65, 0x71, 0x75, 0x65, 0x6e, 0x74, 0x69, 0x61, 0x6c, 0x5f, 0x31, 0x2f, 
	0x63, 0x6f, 0x6e, 0x76, 0x31, 0x64, 0x5f, 0x31, 0x2f, 0x53, 0x71, 0x75, 
	0x65, 0x65, 0x7a, 0x65, 0x3b, 0x73, 0x65, 0x71, 0x75, 0x65, 0x6e, 0x74, 
	0x69, 0x61, 0x6c, 0x5f, 0x31, 0x2f, 0x63, 0x6f, 0x6e, 0x76, 0x31, 0x64, 
	0x5f, 0x31, 0x2f, 0x63, 0x6f, 0x6e, 0x76, 0x6f, 0x6c, 0x75, 0x74, 0x69, 
	0x6f, 0x6e, 0x00, 0x00, 0x01, 0x00, 0x00, 0x00, 0x10, 0x00, 0x00, 0x00, 
	0x00, 0x00, 0x16, 0x00, 0x18, 0x00, 0x14, 0x00, 0x00, 0x00, 0x10, 0x00, 
	0x0c, 0x00, 0x08, 0x00, 0x00, 0x00, 0x00, 0x00, 0x00, 0x00, 0x07, 0x00, 
	0x16, 0x00, 0x00, 0x00, 0x00, 0x00, 0x00, 0x01, 0x10, 0x00, 0x00, 0x00, 
	0x10, 0x00, 0x00, 0x00, 0x07, 0x00, 0x00, 0x00, 0x44, 0x00, 0x00, 0x00, 
	0xbc, 0xfd, 0xff, 0xff, 0x36, 0x00, 0x00, 0x00, 0x73, 0x65, 0x71, 0x75, 
	0x65, 0x6e, 0x74, 0x69, 0x61, 0x6c, 0x5f, 0x31, 0x2f, 0x64, 0x65, 0x6e, 
	0x73, 0x65, 0x5f, 0x31, 0x2f, 0x52, 0x65, 0x6c, 0x75, 0x3b, 0x73, 0x65, 
	0x71, 0x75, 0x65, 0x6e, 0x74, 0x69, 0x61, 0x6c, 0x5f, 0x31, 0x2f, 0x64, 
	0x65, 0x6e, 0x73, 0x65, 0x5f, 0x31, 0x2f, 0x42, 0x69, 0x61, 0x73, 0x41, 
	0x64, 0x64, 0x00, 0x00, 0x01, 0x00, 0x00, 0x00, 0x10, 0x00, 0x00, 0x00, 
	0xba, 0xfe, 0xff, 0xff, 0x00, 0x00, 0x00, 0x01, 0x14, 0x00, 0x00, 0x00, 
	0x14, 0x00, 0x00, 0x00, 0x05, 0x00, 0x00, 0x00, 0x00, 0x00, 0x00, 0x02, 
	0x44, 0x00, 0x00, 0x00, 0x20, 0xfe, 0xff, 0xff, 0x35, 0x00, 0x00, 0x00, 
	0x73, 0x65, 0x71, 0x75, 0x65, 0x6e, 0x74, 0x69, 0x61, 0x6c, 0x5f, 0x31, 
	0x2f, 0x6d, 0x61, 0x78, 0x5f, 0x70, 0x6f, 0x6f, 0x6c, 0x69, 0x6e, 0x67, 
	0x31, 0x64, 0x5f, 0x31, 0x2f, 0x4d, 0x61, 0x78, 0x50, 0x6f, 0x6f, 0x6c, 
	0x31, 0x64, 0x2f, 0x45, 0x78, 0x70, 0x61, 0x6e, 0x64, 0x44, 0x69, 0x6d, 
	0x73, 0x2f, 0x64, 0x69, 0x6d, 0x00, 0x00, 0x00, 0x00, 0x00, 0x00, 0x00, 
	0x1a, 0xff, 0xff, 0xff, 0x00, 0x00, 0x00, 0x01, 0x14, 0x00, 0x00, 0x00, 
	0x14, 0x00, 0x00, 0x00, 0x05, 0x00, 0x00, 0x00, 0x00, 0x00, 0x00, 0x02, 
	0x1c, 0x00, 0x00, 0x00, 0x80, 0xfe, 0xff, 0xff, 0x0e, 0x00, 0x00, 0x00, 
	0x61, 0x72, 0x69, 0x74, 0x68, 0x2e, 0x63, 0x6f, 0x6e, 0x73, 0x74, 0x61, 
	0x6e, 0x74, 0x00, 0x00, 0x01, 0x00, 0x00, 0x00, 0x01, 0x00, 0x00, 0x00, 
	0x56, 0xff, 0xff, 0xff, 0x00, 0x00, 0x00, 0x01, 0x14, 0x00, 0x00, 0x00, 
	0x14, 0x00, 0x00, 0x00, 0x04, 0x00, 0x00, 0x00, 0x00, 0x00, 0x00, 0x02, 
	0x38, 0x00, 0x00, 0x00, 0xbc, 0xfe, 0xff, 0xff, 0x2a, 0x00, 0x00, 0x00, 
	0x73, 0x65, 0x71, 0x75, 0x65, 0x6e, 0x74, 0x69, 0x61, 0x6c, 0x5f, 0x31, 
	0x2f, 0x66, 0x6c, 0x61, 0x74, 0x74, 0x65, 0x6e, 0x5f, 0x31, 0x2f, 0x73, 
	0x74, 0x72, 0x69, 0x64, 0x65, 0x64, 0x5f, 0x73, 0x6c, 0x69, 0x63, 0x65, 
	0x2f, 0x73, 0x74, 0x61, 0x63, 0x6b, 0x00, 0x00, 0x01, 0x00, 0x00, 0x00, 
	0x01, 0x00, 0x00, 0x00, 0xae, 0xff, 0xff, 0xff, 0x00, 0x00, 0x00, 0x01, 
	0x14, 0x00, 0x00, 0x00, 0x14, 0x00, 0x00, 0x00, 0x03, 0x00, 0x00, 0x00, 
	0x00, 0x00, 0x00, 0x02, 0x34, 0x00, 0x00, 0x00, 0x14, 0xff, 0xff, 0xff, 
	0x26, 0x00, 0x00, 0x00, 0x73, 0x65, 0x71, 0x75, 0x65, 0x6e, 0x74, 0x69, 
	0x61, 0x6c, 0x5f, 0x31, 0x2f, 0x66, 0x6c, 0x61, 0x74, 0x74, 0x65, 0x6e, 
	0x5f, 0x31, 0x2f, 0x52, 0x65, 0x73, 0x68, 0x61, 0x70, 0x65, 0x2f, 0x73, 
	0x68, 0x61, 0x70, 0x65, 0x2f, 0x31, 0x00, 0x00, 0x00, 0x00, 0x00, 0x00, 
	0x00, 0x00, 0x16, 0x00, 0x1c, 0x00, 0x18, 0x00, 0x17, 0x00, 0x10, 0x00, 
	0x0c, 0x00, 0x08, 0x00, 0x00, 0x00, 0x00, 0x00, 0x00, 0x00, 0x07, 0x00, 
	0x16, 0x00, 0x00, 0x00, 0x00, 0x00, 0x00, 0x01, 0x14, 0x00, 0x00, 0x00, 
	0x14, 0x00, 0x00, 0x00, 0x02, 0x00, 0x00, 0x00, 0x00, 0x00, 0x00, 0x02, 
	0x40, 0x00, 0x00, 0x00, 0x7c, 0xff, 0xff, 0xff, 0x30, 0x00, 0x00, 0x00, 
	0x73, 0x65, 0x71, 0x75, 0x65, 0x6e, 0x74, 0x69, 0x61, 0x6c, 0x5f, 0x31, 
	0x2f, 0x63, 0x6f, 0x6e, 0x76, 0x31, 0x64, 0x5f, 0x31, 0x2f, 0x63, 0x6f, 
	0x6e, 0x76, 0x6f, 0x6c, 0x75, 0x74, 0x69, 0x6f, 0x6e, 0x2f, 0x45, 0x78, 
	0x70, 0x61, 0x6e, 0x64, 0x44, 0x69, 0x6d, 0x73, 0x2f, 0x64, 0x69, 0x6d, 
	0x00, 0x00, 0x00, 0x00, 0x00, 0x00, 0x00, 0x00, 0x00, 0x00, 0x16, 0x00, 
	0x1c, 0x00, 0x18, 0x00, 0x00, 0x00, 0x14, 0x00, 0x10, 0x00, 0x0c, 0x00, 
	0x00, 0x00, 0x00, 0x00, 0x08, 0x00, 0x07, 0x00, 0x16, 0x00, 0x00, 0x00, 
	0x00, 0x00, 0x00, 0x01, 0x14, 0x00, 0x00, 0x00, 0x24, 0x00, 0x00, 0x00, 
	0x24, 0x00, 0x00, 0x00, 0x01, 0x00, 0x00, 0x00, 0x40, 0x00, 0x00, 0x00, 
	0x03, 0x00, 0x00, 0x00, 0xff, 0xff, 0xff, 0xff, 0x0a, 0x00, 0x00, 0x00, 
	0x06, 0x00, 0x00, 0x00, 0x04, 0x00, 0x04, 0x00, 0x04, 0x00, 0x00, 0x00, 
	0x1e, 0x00, 0x00, 0x00, 0x73, 0x65, 0x72, 0x76, 0x69, 0x6e, 0x67, 0x5f, 
	0x64, 0x65, 0x66, 0x61, 0x75, 0x6c, 0x74, 0x5f, 0x6b, 0x65, 0x72, 0x61, 
	0x73, 0x5f, 0x74, 0x65, 0x6e, 0x73, 0x6f, 0x72, 0x3a, 0x30, 0x00, 0x00, 
	0x03, 0x00, 0x00, 0x00, 0x01, 0x00, 0x00, 0x00, 0x0a, 0x00, 0x00, 0x00, 
	0x06, 0x00, 0x00, 0x00, 0x09, 0x00, 0x00, 0x00, 0xa0, 0x00, 0x00, 0x00, 
	0x84, 0x00, 0x00, 0x00, 0x74, 0x00, 0x00, 0x00, 0x64, 0x00, 0x00, 0x00, 
	0x54, 0x00, 0x00, 0x00, 0x44, 0x00, 0x00, 0x00, 0x34, 0x00, 0x00, 0x00, 
	0x20, 0x00, 0x00, 0x00, 0x04, 0x00, 0x00, 0x00, 0x90, 0xff, 0xff, 0xff, 
	0x0e, 0x00, 0x00, 0x00, 0x00, 0x00, 0x00, 0x0e, 0x0c, 0x00, 0x10, 0x00, 
	0x0f, 0x00, 0x00, 0x00, 0x08, 0x00, 0x04, 0x00, 0x0c, 0x00, 0x00, 0x00, 
	0x09, 0x00, 0x00, 0x00, 0x0c, 0x00, 0x00, 0x00, 0x00, 0x00, 0x00, 0x09, 
	0xb8, 0xff, 0xff, 0xff, 0x53, 0x00, 0x00, 0x00, 0x00, 0x00, 0x00, 0x53, 
	0xc4, 0xff, 0xff, 0xff, 0x2d, 0x00, 0x00, 0x00, 0x00, 0x00, 0x00, 0x2d, 
	0xd0, 0xff, 0xff, 0xff, 0x4d, 0x00, 0x00, 0x00, 0x00, 0x00, 0x00, 0x4d, 
	0xdc, 0xff, 0xff, 0xff, 0x11, 0x00, 0x00, 0x00, 0x00, 0x00, 0x00, 0x11, 
	0xe8, 0xff, 0xff, 0xff, 0x16, 0x00, 0x00, 0x00, 0x00, 0x00, 0x00, 0x16, 
	0xf4, 0xff, 0xff, 0xff, 0x03, 0x00, 0x00, 0x00, 0x00, 0x00, 0x00, 0x03, 
	0x0c, 0x00, 0x0c, 0x00, 0x0b, 0x00, 0x00, 0x00, 0x00, 0x00, 0x04, 0x00, 
	0x0c, 0x00, 0x00, 0x00, 0x46, 0x00, 0x00, 0x00, 0x00, 0x00, 0x00, 0x46, 
	
};

#endif // KICKBACK_MODEL_H